
// This is a TensorFlow Lite model file that has been converted into a C data
// array using the tensorflow.lite.util.convert_bytes_to_c_source() function.
// This form is useful for compiling into a binary for devices that don't have a
// file system.

#include "mnist_model_uint8_data.h"

// We need to keep the data array aligned on some architectures.
#ifdef __has_attribute
#define HAVE_ATTRIBUTE(x) __has_attribute(x)
#else
#define HAVE_ATTRIBUTE(x) 0
#endif
#if HAVE_ATTRIBUTE(aligned) || (defined(__GNUC__) && !defined(__clang__))
#define DATA_ALIGN_ATTRIBUTE __attribute__((aligned(4)))
#else
#define DATA_ALIGN_ATTRIBUTE
#endif

const unsigned char g_mnist_uint8_model_data[] DATA_ALIGN_ATTRIBUTE = {
    0x20, 0x00, 0x00, 0x00, 0x54, 0x46, 0x4c, 0x33, 0x00, 0x00, 0x00, 0x00, 0x14,
    0x00, 0x20, 0x00, 0x1c, 0x00, 0x18, 0x00, 0x14, 0x00, 0x10, 0x00, 0x0c, 0x00,
    0x00, 0x00, 0x08, 0x00, 0x04, 0x00, 0x14, 0x00, 0x00, 0x00, 0x1c, 0x00, 0x00,
    0x00, 0x80, 0x00, 0x00, 0x00, 0xd8, 0x00, 0x00, 0x00, 0xd4, 0x08, 0x00, 0x00,
    0xe4, 0x08, 0x00, 0x00, 0xcc, 0x11, 0x00, 0x00, 0x03, 0x00, 0x00, 0x00, 0x01,
    0x00, 0x00, 0x00, 0x04, 0x00, 0x00, 0x00, 0x4a, 0xf6, 0xff, 0xff, 0x0c, 0x00,
    0x00, 0x00, 0x1c, 0x00, 0x00, 0x00, 0x38, 0x00, 0x00, 0x00, 0x0f, 0x00, 0x00,
    0x00, 0x73, 0x65, 0x72, 0x76, 0x69, 0x6e, 0x67, 0x5f, 0x64, 0x65, 0x66, 0x61,
    0x75, 0x6c, 0x74, 0x00, 0x01, 0x00, 0x00, 0x00, 0x04, 0x00, 0x00, 0x00, 0x9c,
    0xff, 0xff, 0xff, 0x0c, 0x00, 0x00, 0x00, 0x04, 0x00, 0x00, 0x00, 0x05, 0x00,
    0x00, 0x00, 0x64, 0x65, 0x6e, 0x73, 0x65, 0x00, 0x00, 0x00, 0x01, 0x00, 0x00,
    0x00, 0x04, 0x00, 0x00, 0x00, 0xea, 0xf6, 0xff, 0xff, 0x04, 0x00, 0x00, 0x00,
    0x07, 0x00, 0x00, 0x00, 0x69, 0x6e, 0x70, 0x75, 0x74, 0x5f, 0x31, 0x00, 0x02,
    0x00, 0x00, 0x00, 0x34, 0x00, 0x00, 0x00, 0x04, 0x00, 0x00, 0x00, 0xdc, 0xff,
    0xff, 0xff, 0x0f, 0x00, 0x00, 0x00, 0x04, 0x00, 0x00, 0x00, 0x13, 0x00, 0x00,
    0x00, 0x43, 0x4f, 0x4e, 0x56, 0x45, 0x52, 0x53, 0x49, 0x4f, 0x4e, 0x5f, 0x4d,
    0x45, 0x54, 0x41, 0x44, 0x41, 0x54, 0x41, 0x00, 0x08, 0x00, 0x0c, 0x00, 0x08,
    0x00, 0x04, 0x00, 0x08, 0x00, 0x00, 0x00, 0x0e, 0x00, 0x00, 0x00, 0x04, 0x00,
    0x00, 0x00, 0x13, 0x00, 0x00, 0x00, 0x6d, 0x69, 0x6e, 0x5f, 0x72, 0x75, 0x6e,
    0x74, 0x69, 0x6d, 0x65, 0x5f, 0x76, 0x65, 0x72, 0x73, 0x69, 0x6f, 0x6e, 0x00,
    0x10, 0x00, 0x00, 0x00, 0xf8, 0x07, 0x00, 0x00, 0xf0, 0x07, 0x00, 0x00, 0xd8,
    0x07, 0x00, 0x00, 0xa0, 0x07, 0x00, 0x00, 0xf4, 0x00, 0x00, 0x00, 0xe0, 0x00,
    0x00, 0x00, 0xc4, 0x00, 0x00, 0x00, 0xbc, 0x00, 0x00, 0x00, 0xb4, 0x00, 0x00,
    0x00, 0xac, 0x00, 0x00, 0x00, 0xa4, 0x00, 0x00, 0x00, 0x9c, 0x00, 0x00, 0x00,
    0x94, 0x00, 0x00, 0x00, 0x8c, 0x00, 0x00, 0x00, 0x6c, 0x00, 0x00, 0x00, 0x04,
    0x00, 0x00, 0x00, 0x9e, 0xf7, 0xff, 0xff, 0x04, 0x00, 0x00, 0x00, 0x58, 0x00,
    0x00, 0x00, 0x0c, 0x00, 0x00, 0x00, 0x08, 0x00, 0x0e, 0x00, 0x08, 0x00, 0x04,
    0x00, 0x08, 0x00, 0x00, 0x00, 0x10, 0x00, 0x00, 0x00, 0x28, 0x00, 0x00, 0x00,
    0x00, 0x00, 0x06, 0x00, 0x08, 0x00, 0x04, 0x00, 0x06, 0x00, 0x00, 0x00, 0x04,
    0x00, 0x00, 0x00, 0x01, 0x00, 0x00, 0x00, 0xeb, 0x03, 0x00, 0x00, 0x00, 0x00,
    0x0a, 0x00, 0x10, 0x00, 0x0c, 0x00, 0x08, 0x00, 0x04, 0x00, 0x0a, 0x00, 0x00,
    0x00, 0x02, 0x00, 0x00, 0x00, 0x02, 0x00, 0x00, 0x00, 0x04, 0x00, 0x00, 0x00,
    0x06, 0x00, 0x00, 0x00, 0x32, 0x2e, 0x31, 0x33, 0x2e, 0x30, 0x00, 0x00, 0x02,
    0xf8, 0xff, 0xff, 0x04, 0x00, 0x00, 0x00, 0x10, 0x00, 0x00, 0x00, 0x31, 0x2e,
    0x31, 0x34, 0x2e, 0x30, 0x00, 0x00, 0x00, 0x00, 0x00, 0x00, 0x00, 0x00, 0x00,
    0x00, 0xa0, 0xf0, 0xff, 0xff, 0xa4, 0xf0, 0xff, 0xff, 0xa8, 0xf0, 0xff, 0xff,
    0xac, 0xf0, 0xff, 0xff, 0xb0, 0xf0, 0xff, 0xff, 0xb4, 0xf0, 0xff, 0xff, 0xb8,
    0xf0, 0xff, 0xff, 0x3a, 0xf8, 0xff, 0xff, 0x04, 0x00, 0x00, 0x00, 0x09, 0x00,
    0x00, 0x00, 0x29, 0x2e, 0x04, 0x16, 0x32, 0x65, 0x0a, 0x7f, 0x6c, 0x00, 0x00,
    0x00, 0x52, 0xf8, 0xff, 0xff, 0x04, 0x00, 0x00, 0x00, 0x04, 0x00, 0x00, 0x00,
    0xa3, 0x14, 0x00, 0x00, 0x62, 0xf8, 0xff, 0xff, 0x04, 0x00, 0x00, 0x00, 0x9a,
    0x06, 0x00, 0x00, 0xfc, 0xf5, 0xdd, 0xe7, 0xf5, 0xef, 0xf4, 0xe8, 0xd8, 0xc6,
    0xd1, 0xd3, 0xff, 0xfd, 0xcd, 0xfa, 0x00, 0x02, 0x0c, 0x0c, 0x03, 0x03, 0x0c,
    0xf1, 0xe1, 0xe3, 0xe7, 0xfc, 0x0a, 0xf2, 0xef, 0xf3, 0xfd, 0x16, 0x0f, 0xfe,
    0x05, 0x15, 0x8e, 0xe9, 0xdc, 0xde, 0x04, 0x0c, 0x0f, 0x11, 0x1c, 0x20, 0x15,
    0xf2, 0x23, 0xa3, 0x06, 0xe7, 0xfe, 0xeb, 0xf1, 0x05, 0xf7, 0x09, 0x20, 0x0f,
    0x22, 0x08, 0xad, 0xe5, 0xf0, 0x15, 0xfb, 0x0f, 0xee, 0xd2, 0xb7, 0xf6, 0x00,
    0xf6, 0x43, 0xfe, 0xc8, 0xe9, 0x18, 0x02, 0x26, 0x10, 0xab, 0xbc, 0xef, 0xff,
    0xfd, 0x31, 0x1c, 0xc4, 0x1e, 0x0b, 0x1b, 0x23, 0xf5, 0x9e, 0xea, 0x02, 0x14,
    0xfc, 0x1a, 0xf2, 0xcf, 0x00, 0xfb, 0x27, 0x0b, 0xf3, 0xc8, 0xff, 0x0a, 0xfa,
    0x07, 0xf6, 0xe9, 0xee, 0x14, 0xfd, 0x06, 0x1c, 0x11, 0xff, 0x0b, 0xea, 0x07,
    0xfd, 0xf3, 0xd6, 0xe9, 0xe1, 0x1c, 0xfd, 0x19, 0x29, 0xfb, 0xf7, 0xf3, 0xf9,
    0x0e, 0xfe, 0xd4, 0xdc, 0xc6, 0x05, 0x0a, 0x1b, 0x1d, 0x0d, 0x13, 0xf4, 0xe0,
    0xf0, 0xf5, 0xdf, 0xf8, 0xce, 0xcc, 0xab, 0xb8, 0xd0, 0xd2, 0xd7, 0xd6, 0xab,
    0xba, 0xed, 0xe3, 0x42, 0x1c, 0x38, 0xe2, 0xe0, 0xf0, 0x10, 0xfc, 0xe8, 0xb6,
    0xd6, 0x19, 0x18, 0x24, 0x40, 0x10, 0xf3, 0xe4, 0xee, 0x2a, 0xff, 0xf6, 0xff,
    0x18, 0xff, 0xde, 0x16, 0x17, 0xd5, 0xe4, 0xec, 0xe7, 0xdb, 0xd2, 0xf6, 0x0e,
    0x0d, 0x02, 0xd2, 0x1f, 0xe7, 0xde, 0xde, 0xe6, 0xe6, 0xf3, 0x01, 0xe7, 0xe6,
    0xdc, 0xbe, 0x99, 0x1b, 0xc5, 0xcc, 0xef, 0x12, 0xec, 0x54, 0x23, 0xf7, 0xf5,
    0xef, 0xa9, 0xb7, 0x16, 0xf5, 0xdc, 0xf7, 0xc2, 0xef, 0x39, 0x38, 0xfa, 0x03,
    0xd8, 0xd2, 0xec, 0x33, 0x0e, 0xec, 0x1d, 0xd0, 0xfd, 0x35, 0x17, 0xd9, 0xe4,
    0xf2, 0xf0, 0x19, 0x1a, 0xe8, 0xc9, 0xfc, 0xd8, 0xfd, 0x51, 0x07, 0xc6, 0xb2,
    0xfb, 0xe6, 0xf8, 0x21, 0x91, 0xbf, 0x04, 0xd6, 0x06, 0x31, 0xd0, 0xd9, 0x27,
    0xe9, 0xe3, 0x0b, 0x23, 0xec, 0x09, 0x18, 0x05, 0x0e, 0xf4, 0xfa, 0x09, 0x28,
    0x12, 0x12, 0x27, 0x04, 0x43, 0x08, 0x1a, 0x00, 0xdc, 0xec, 0x08, 0x24, 0x29,
    0xf7, 0xfd, 0x3c, 0x2c, 0x06, 0x11, 0x02, 0xfc, 0xf3, 0xf3, 0x07, 0x1a, 0x0b,
    0xdd, 0xf2, 0x40, 0x4b, 0xfb, 0xcb, 0xc8, 0xb3, 0xdb, 0xe0, 0xc6, 0xcf, 0xde,
    0x1c, 0x0f, 0x3f, 0x06, 0xde, 0xf1, 0x09, 0x20, 0x1e, 0x05, 0xf8, 0xee, 0xdc,
    0xd9, 0x03, 0x07, 0xe8, 0xed, 0x0f, 0x0e, 0x0f, 0x1a, 0x16, 0x1f, 0x07, 0xf5,
    0x01, 0xd1, 0xec, 0xf9, 0x05, 0x01, 0x02, 0xf7, 0xee, 0x05, 0xfa, 0xf4, 0xf9,
    0x01, 0xd7, 0xde, 0xf2, 0x1b, 0x13, 0x05, 0x2e, 0xfe, 0x1c, 0xff, 0x0b, 0x06,
    0x08, 0xcb, 0xb8, 0x02, 0x28, 0xf8, 0xea, 0xf1, 0xe3, 0xdd, 0x13, 0xfd, 0x02,
    0xfd, 0xdd, 0xcf, 0xcf, 0xd8, 0xaf, 0xda, 0xd7, 0xba, 0xd2, 0xcb, 0xfb, 0x09,
    0xed, 0x01, 0x5b, 0xe3, 0xcf, 0xe5, 0xef, 0xfb, 0xff, 0x0e, 0xec, 0xfa, 0xf4,
    0xe8, 0xf9, 0x5a, 0x21, 0x1c, 0x01, 0xff, 0x03, 0x1d, 0x1a, 0x04, 0xfa, 0x00,
    0xf8, 0x1a, 0x66, 0x00, 0x27, 0x13, 0x05, 0x04, 0x1a, 0x09, 0x0a, 0x04, 0x00,
    0x00, 0x0e, 0x57, 0xfd, 0xfc, 0x12, 0x1d, 0x17, 0x06, 0x14, 0x06, 0x12, 0x12,
    0x1c, 0x1a, 0x45, 0x1b, 0x16, 0x1e, 0x16, 0x18, 0xff, 0xe8, 0xe9, 0x21, 0x21,
    0x12, 0x09, 0x20, 0xec, 0xf0, 0xee, 0x06, 0xfb, 0x09, 0xfd, 0xfd, 0x10, 0x14,
    0x0d, 0x13, 0x34, 0x00, 0xce, 0xce, 0xad, 0xcf, 0xd4, 0x06, 0xec, 0xea, 0xde,
    0xe6, 0x00, 0x01, 0xe2, 0xd1, 0x09, 0x03, 0x0d, 0x2a, 0x1c, 0x0f, 0x07, 0xfa,
    0xd1, 0xd0, 0xbb, 0xeb, 0x24, 0x33, 0x01, 0x0b, 0x0f, 0x00, 0x1c, 0xf7, 0x05,
    0xef, 0xd2, 0xba, 0x04, 0x10, 0x04, 0x0d, 0x17, 0x0e, 0x01, 0x0c, 0x00, 0xfd,
    0xf0, 0xd7, 0xd7, 0xf3, 0x20, 0x22, 0x11, 0x0e, 0xe1, 0x1c, 0x16, 0xfd, 0x0b,
    0x03, 0xd1, 0xbc, 0x19, 0x25, 0xf0, 0xe9, 0xd5, 0xed, 0x06, 0x18, 0x16, 0x1d,
    0x17, 0xed, 0xa7, 0xec, 0xe8, 0xd1, 0xea, 0xe6, 0xe7, 0x17, 0xfb, 0x0a, 0xf8,
    0xce, 0xe7, 0xa6, 0xfc, 0xf3, 0xd5, 0x02, 0xfc, 0x1b, 0x17, 0xfb, 0x0e, 0xf7,
    0xde, 0xe8, 0xdf, 0x27, 0x10, 0xdf, 0xe3, 0xe5, 0xfb, 0xf7, 0xea, 0x00, 0x05,
    0x17, 0x1a, 0xcb, 0x27, 0x2a, 0x15, 0xef, 0xd5, 0xd5, 0xf4, 0x02, 0x1f, 0x08,
    0xf6, 0xfb, 0xdc, 0x1e, 0x1d, 0x0a, 0x1c, 0xe7, 0xee, 0xe8, 0x19, 0x14, 0x0e,
    0x0e, 0xf4, 0x9a, 0x1b, 0xff, 0x15, 0x1a, 0x0b, 0xeb, 0x05, 0x01, 0x13, 0x07,
    0xf9, 0xca, 0xa7, 0x25, 0x3c, 0x07, 0xfd, 0x04, 0x0c, 0x03, 0xeb, 0xf8, 0x16,
    0xf4, 0xd2, 0xd8, 0xf2, 0xfd, 0x45, 0x46, 0x3d, 0x2b, 0x1d, 0x14, 0x2a, 0xdc,
    0xd3, 0xd6, 0xc2, 0x10, 0x1c, 0xef, 0xb3, 0xa3, 0x8f, 0x8f, 0xbd, 0xc9, 0xeb,
    0x04, 0xeb, 0xf6, 0x15, 0x14, 0x0e, 0xef, 0x01, 0xeb, 0x10, 0x04, 0x14, 0x0f,
    0x14, 0x2e, 0xf5, 0xf3, 0x1b, 0x27, 0x10, 0x00, 0xe4, 0xf4, 0xe4, 0xf8, 0xe3,
    0x1f, 0x2e, 0x16, 0xfe, 0xfc, 0xef, 0xf6, 0xed, 0xf4, 0xcd, 0xd4, 0xf9, 0x0c,
    0xfd, 0x00, 0xf9, 0xc8, 0xd4, 0xf7, 0xfd, 0x20, 0x00, 0xc2, 0xfe, 0x17, 0xe8,
    0xe6, 0xcd, 0xdd, 0xfd, 0xe6, 0x0b, 0x03, 0x36, 0x33, 0xd6, 0x25, 0x10, 0x00,
    0x16, 0xea, 0xd7, 0xef, 0x0c, 0x14, 0x32, 0x2b, 0x14, 0xe2, 0x25, 0x26, 0x08,
    0x21, 0xf3, 0xd1, 0xf2, 0xed, 0x19, 0x12, 0x18, 0x01, 0x30, 0x2f, 0x1e, 0x14,
    0x06, 0xd1, 0xce, 0xf8, 0xdd, 0xf8, 0x0b, 0xd9, 0xf2, 0x1f, 0x28, 0xf3, 0xe2,
    0xf4, 0xdc, 0xbc, 0x09, 0x04, 0xca, 0xe9, 0xda, 0xe0, 0x09, 0xe6, 0xed, 0xf7,
    0xde, 0xbe, 0xde, 0xf5, 0xf6, 0xee, 0xe1, 0xeb, 0xdd, 0xd0, 0xf7, 0xf9, 0x03,
    0x14, 0xf3, 0xdf, 0x07, 0xd6, 0xe6, 0x17, 0x14, 0x01, 0x01, 0x08, 0x06, 0x23,
    0x0f, 0xfc, 0x03, 0xfb, 0x0a, 0xee, 0xce, 0xd1, 0xd7, 0xcd, 0xd9, 0xcf, 0xe6,
    0xd0, 0xf0, 0xf0, 0x29, 0x1b, 0x35, 0x05, 0xe5, 0x03, 0xe9, 0xfc, 0x02, 0xf6,
    0x19, 0x18, 0x3a, 0x2e, 0xf4, 0xe8, 0xd7, 0xfa, 0xec, 0xf9, 0x00, 0x00, 0x00,
    0x0c, 0x28, 0x3c, 0x19, 0xc8, 0xfe, 0x07, 0x0d, 0x00, 0xf6, 0xff, 0x08, 0x18,
    0xfd, 0x0d, 0x1b, 0xd6, 0xb5, 0xde, 0x09, 0x13, 0xfa, 0x02, 0xe4, 0x08, 0x0d,
    0x16, 0x2a, 0x4d, 0xd3, 0xe1, 0x0f, 0x0c, 0x07, 0x2c, 0xed, 0xdd, 0xeb, 0xe4,
    0xf1, 0x57, 0x7f, 0x10, 0xfe, 0x0a, 0xf9, 0x10, 0x14, 0x0a, 0xdd, 0xe8, 0xf7,
    0xac, 0xd9, 0x69, 0x07, 0xfd, 0xeb, 0x0d, 0x1f, 0x17, 0x04, 0xdc, 0xf2, 0xf1,
    0xf0, 0xc5, 0xc7, 0x1b, 0xeb, 0xe3, 0xed, 0xf5, 0xf0, 0xe2, 0xdf, 0xf3, 0x0b,
    0xfe, 0x13, 0xee, 0x12, 0x37, 0x12, 0xf6, 0xd4, 0xe6, 0xea, 0x00, 0x1d, 0xf2,
    0xfa, 0x02, 0xfc, 0x1f, 0xf0, 0x22, 0x1e, 0x00, 0x02, 0x06, 0x08, 0x03, 0x11,
    0x13, 0x0d, 0x24, 0x0e, 0x09, 0xee, 0x07, 0x12, 0x04, 0xfe, 0x06, 0x01, 0x1a,
    0x12, 0x20, 0x18, 0x46, 0x26, 0xf1, 0x0f, 0xfa, 0x17, 0xff, 0x15, 0x02, 0x06,
    0x07, 0x13, 0x17, 0x26, 0x11, 0xfa, 0xef, 0x19, 0x15, 0x0e, 0x15, 0xf9, 0x18,
    0x2f, 0x3c, 0x24, 0x09, 0x0b, 0x33, 0x1b, 0x41, 0x2e, 0x22, 0xf5, 0x15, 0x16,
    0x26, 0x35, 0x18, 0xeb, 0x01, 0xfe, 0x02, 0xfb, 0xdd, 0xfe, 0x09, 0x0a, 0x1c,
    0x1c, 0x2e, 0x0a, 0xfd, 0xdc, 0xf0, 0xee, 0xfa, 0xe2, 0xeb, 0xfa, 0xdb, 0x05,
    0xf7, 0x15, 0xf8, 0xf8, 0xec, 0xe2, 0x04, 0xe6, 0xf0, 0xee, 0xe8, 0xd5, 0xeb,
    0xdb, 0xee, 0xc8, 0xd1, 0xe0, 0xf5, 0xf0, 0xe4, 0x14, 0xcd, 0xdc, 0xca, 0xeb,
    0xfc, 0xd6, 0x93, 0xbb, 0xec, 0x16, 0xfd, 0x18, 0xff, 0xdd, 0xf3, 0xdf, 0xfe,
    0x0c, 0x4b, 0xd7, 0xdd, 0xe9, 0x06, 0x17, 0x10, 0x00, 0x08, 0x04, 0xfc, 0xf6,
    0x19, 0x3e, 0xf1, 0xcc, 0xf7, 0x01, 0x15, 0x28, 0x26, 0x13, 0xef, 0xed, 0x0b,
    0xed, 0xf7, 0xf8, 0xe3, 0xc9, 0xfd, 0x10, 0x13, 0x1d, 0xf8, 0x10, 0x0a, 0x10,
    0xef, 0x0c, 0xe2, 0xd0, 0xb9, 0xeb, 0xfe, 0x36, 0x31, 0x1e, 0x1e, 0x27, 0xfe,
    0x04, 0xff, 0xf8, 0xd6, 0xcf, 0xde, 0x13, 0xfb, 0x20, 0x16, 0x0c, 0x00, 0x0f,
    0x0e, 0xce, 0xd6, 0xe0, 0xf2, 0xbe, 0xe7, 0xea, 0xf5, 0xdc, 0x03, 0xe7, 0x0d,
    0xdc, 0xde, 0xe2, 0xfd, 0xf0, 0xf4, 0xe6, 0xbc, 0xa7, 0xae, 0xdd, 0xdc, 0xdb,
    0xea, 0xee, 0xed, 0x3b, 0x39, 0x07, 0xee, 0xda, 0xf1, 0xe2, 0x04, 0x0b, 0xf5,
    0x21, 0x33, 0x42, 0x13, 0x25, 0x06, 0xf5, 0xef, 0xeb, 0xec, 0xf0, 0xc6, 0xc5,
    0xd2, 0x07, 0x05, 0x25, 0xf9, 0x32, 0x20, 0x19, 0x07, 0xf5, 0xf1, 0x14, 0x00,
    0xf8, 0xf6, 0x05, 0x2a, 0x11, 0x17, 0x09, 0x1c, 0x0d, 0x18, 0x1d, 0x17, 0x14,
    0xfe, 0xef, 0xf3, 0x31, 0x2a, 0xfe, 0x00, 0x14, 0x13, 0x23, 0x48, 0x2d, 0x12,
    0x1c, 0xd7, 0xcb, 0x3b, 0x1f, 0xfe, 0x0c, 0xf2, 0xdc, 0xdb, 0x30, 0x0b, 0x0d,
    0xf9, 0xec, 0xed, 0x38, 0x06, 0xfb, 0x0a, 0xf8, 0x99, 0xcf, 0x10, 0x0c, 0x16,
    0x06, 0x0b, 0xec, 0x09, 0xff, 0xfd, 0xf3, 0xef, 0xd0, 0xf7, 0x08, 0x1f, 0x2f,
    0x04, 0xfe, 0xd6, 0xfe, 0xf9, 0xe1, 0xeb, 0xcf, 0xf2, 0x08, 0xf1, 0xfa, 0xed,
    0xe2, 0xc3, 0xf9, 0xe8, 0xe7, 0xd7, 0xd6, 0xe8, 0xf5, 0x00, 0xd0, 0xdb, 0xce,
    0xe5, 0xb3, 0x06, 0xea, 0xe9, 0xff, 0xfe, 0xfb, 0xe3, 0xda, 0xf7, 0xd2, 0xd0,
    0xc4, 0xab, 0x27, 0x10, 0x2a, 0x21, 0x0c, 0xf5, 0xf8, 0x10, 0xfa, 0xef, 0xce,
    0xc5, 0xd3, 0x0a, 0x19, 0x29, 0x0a, 0x18, 0x1f, 0x26, 0x11, 0x26, 0x30, 0x29,
    0x15, 0x21, 0x22, 0xb6, 0xc2, 0xa8, 0xc3, 0xdc, 0xc9, 0xe6, 0xdd, 0xf3, 0xeb,
    0xf4, 0xd0, 0xc4, 0xc3, 0xae, 0xe8, 0xf8, 0xfc, 0x13, 0x10, 0x1a, 0xf3, 0x1f,
    0xfd, 0xf0, 0xe3, 0xab, 0xd1, 0xf3, 0x05, 0x00, 0xfd, 0x13, 0x18, 0x09, 0xfc,
    0xfe, 0x0b, 0x16, 0xe5, 0x07, 0x08, 0x02, 0x0e, 0x01, 0xef, 0xf5, 0x04, 0x1b,
    0x11, 0x11, 0x1f, 0xbe, 0xf8, 0x00, 0x19, 0x18, 0x15, 0xf4, 0xe1, 0x06, 0x02,
    0xfc, 0x13, 0xfb, 0xd0, 0x21, 0x1b, 0x1e, 0xf6, 0x19, 0x0c, 0x06, 0xf8, 0x25,
    0x28, 0x2a, 0x0d, 0xc4, 0xe7, 0xd4, 0xe9, 0xf9, 0x14, 0x1f, 0x10, 0xfa, 0xe2,
    0xef, 0xf0, 0x0d, 0xc5, 0xbc, 0xf0, 0xfc, 0xf1, 0x27, 0x24, 0xf6, 0xf3, 0xec,
    0xcb, 0xff, 0xde, 0xb3, 0xf2, 0xea, 0x1c, 0x13, 0x1c, 0xe7, 0xf5, 0xfb, 0xef,
    0xfb, 0xfb, 0xd5, 0xa9, 0xeb, 0x11, 0x0a, 0xf7, 0xda, 0xe3, 0xf7, 0xfb, 0xfc,
    0x0d, 0x09, 0xc4, 0xb5, 0xf9, 0x12, 0xfc, 0xf2, 0x12, 0x18, 0xf6, 0xf8, 0x0d,
    0x09, 0xee, 0xb0, 0xa7, 0xb1, 0xe6, 0x0b, 0x0c, 0x0c, 0x08, 0x0a, 0x18, 0x1c,
    0xe3, 0xde, 0xc9, 0xbf, 0xab, 0x9f, 0xce, 0xd8, 0xfb, 0xf4, 0x18, 0xfc, 0x00,
    0xfa, 0xc8, 0xa5, 0xf3, 0x18, 0x07, 0xf1, 0xde, 0xe0, 0xb3, 0xaf, 0xea, 0xdf,
    0xd9, 0x0a, 0x15, 0x0e, 0xd9, 0xfb, 0xd5, 0x11, 0x0d, 0xe9, 0xd6, 0xda, 0xfa,
    0xe5, 0xca, 0x07, 0x08, 0xa7, 0xe9, 0x06, 0xfa, 0x09, 0x26, 0x2c, 0x14, 0x09,
    0xf3, 0xd4, 0xd2, 0xd5, 0xc8, 0xf6, 0xe9, 0xff, 0x12, 0x24, 0x1e, 0x02, 0xfa,
    0xf2, 0xd7, 0xb9, 0xb4, 0xfa, 0x0d, 0x01, 0x2b, 0xf6, 0xf5, 0xf1, 0x0e, 0xff,
    0xff, 0xe7, 0xd1, 0xea, 0x21, 0x1a, 0x18, 0x28, 0xe8, 0xff, 0x24, 0x29, 0x29,
    0x26, 0xf3, 0xcc, 0xf3, 0x19, 0x03, 0x08, 0xf9, 0xf1, 0x12, 0x1b, 0x2a, 0x01,
    0x0c, 0xd0, 0xba, 0x02, 0xee, 0xfc, 0x03, 0x17, 0xec, 0xf3, 0x11, 0x09, 0xe6,
    0x07, 0xb7, 0xb8, 0xd0, 0xd1, 0x04, 0xfe, 0x02, 0xe2, 0x00, 0x02, 0x0c, 0xed,
    0xdc, 0xbc, 0xc2, 0xd4, 0xfe, 0xe9, 0xe7, 0xd8, 0xd3, 0xf4, 0xe2, 0xdc, 0xf7,
    0xe4, 0xd0, 0xec, 0xdd, 0xd0, 0xfc, 0x04, 0xf4, 0xf2, 0xea, 0xec, 0xe6, 0xf1,
    0xf0, 0x1e, 0x15, 0x08, 0x06, 0xe8, 0xf3, 0xf1, 0xe9, 0xdb, 0xf6, 0xf8, 0x07,
    0x21, 0x10, 0x1c, 0x0c, 0x3a, 0x3f, 0x2c, 0x22, 0x38, 0x1a, 0x24, 0x2d, 0x39,
    0x25, 0x0e, 0x09, 0x00, 0x00, 0x0a, 0xff, 0xff, 0xff, 0x04, 0x00, 0x00, 0x00,
    0x28, 0x00, 0x00, 0x00, 0x89, 0xfd, 0xff, 0xff, 0x35, 0x05, 0x00, 0x00, 0xe8,
    0xfd, 0xff, 0xff, 0x0e, 0xfb, 0xff, 0xff, 0x71, 0x02, 0x00, 0x00, 0x9a, 0x07,
    0x00, 0x00, 0xd1, 0xfe, 0xff, 0xff, 0x5a, 0x05, 0x00, 0x00, 0x61, 0xf6, 0xff,
    0xff, 0xec, 0x00, 0x00, 0x00, 0x3e, 0xff, 0xff, 0xff, 0x04, 0x00, 0x00, 0x00,
    0x08, 0x00, 0x00, 0x00, 0xff, 0xff, 0xff, 0xff, 0xa9, 0x00, 0x00, 0x00, 0xd4,
    0xf7, 0xff, 0xff, 0xd8, 0xf7, 0xff, 0xff, 0x0f, 0x00, 0x00, 0x00, 0x4d, 0x4c,
    0x49, 0x52, 0x20, 0x43, 0x6f, 0x6e, 0x76, 0x65, 0x72, 0x74, 0x65, 0x64, 0x2e,
    0x00, 0x01, 0x00, 0x00, 0x00, 0x14, 0x00, 0x00, 0x00, 0x00, 0x00, 0x0e, 0x00,
    0x18, 0x00, 0x14, 0x00, 0x10, 0x00, 0x0c, 0x00, 0x08, 0x00, 0x04, 0x00, 0x0e,
    0x00, 0x00, 0x00, 0x14, 0x00, 0x00, 0x00, 0x1c, 0x00, 0x00, 0x00, 0xc8, 0x01,
    0x00, 0x00, 0xcc, 0x01, 0x00, 0x00, 0xd0, 0x01, 0x00, 0x00, 0x04, 0x00, 0x00,
    0x00, 0x6d, 0x61, 0x69, 0x6e, 0x00, 0x00, 0x00, 0x00, 0x07, 0x00, 0x00, 0x00,
    0x90, 0x01, 0x00, 0x00, 0x30, 0x01, 0x00, 0x00, 0xcc, 0x00, 0x00, 0x00, 0xa4,
    0x00, 0x00, 0x00, 0x60, 0x00, 0x00, 0x00, 0x24, 0x00, 0x00, 0x00, 0x04, 0x00,
    0x00, 0x00, 0x96, 0xfe, 0xff, 0xff, 0x08, 0x00, 0x00, 0x00, 0x0c, 0x00, 0x00,
    0x00, 0x01, 0x00, 0x00, 0x00, 0x0c, 0x00, 0x00, 0x00, 0x01, 0x00, 0x00, 0x00,
    0x0b, 0x00, 0x00, 0x00, 0x12, 0xff, 0xff, 0xff, 0x1c, 0x00, 0x00, 0x00, 0x00,
    0x00, 0x00, 0x09, 0x1c, 0x00, 0x00, 0x00, 0x20, 0x00, 0x00, 0x00, 0x05, 0x00,
    0x00, 0x00, 0x00, 0x00, 0x06, 0x00, 0x08, 0x00, 0x04, 0x00, 0x06, 0x00, 0x00,
    0x00, 0x00, 0x00, 0x80, 0x3f, 0x01, 0x00, 0x00, 0x00, 0x0b, 0x00, 0x00, 0x00,
    0x01, 0x00, 0x00, 0x00, 0x0a, 0x00, 0x00, 0x00, 0x4a, 0xff, 0xff, 0xff, 0x14,
    0x00, 0x00, 0x00, 0x00, 0x00, 0x00, 0x08, 0x10, 0x00, 0x00, 0x00, 0x14, 0x00,
    0x00, 0x00, 0x04, 0x00, 0x00, 0x00, 0xb8, 0xf8, 0xff, 0xff, 0x01, 0x00, 0x00,
    0x00, 0x0a, 0x00, 0x00, 0x00, 0x03, 0x00, 0x00, 0x00, 0x09, 0x00, 0x00, 0x00,
    0x03, 0x00, 0x00, 0x00, 0x02, 0x00, 0x00, 0x00, 0x00, 0x00, 0x0a, 0x00, 0x10,
    0x00, 0x0c, 0x00, 0x08, 0x00, 0x04, 0x00, 0x0a, 0x00, 0x00, 0x00, 0x0c, 0x00,
    0x00, 0x00, 0x10, 0x00, 0x00, 0x00, 0x03, 0x00, 0x00, 0x00, 0x01, 0x00, 0x00,
    0x00, 0x09, 0x00, 0x00, 0x00, 0x02, 0x00, 0x00, 0x00, 0x08, 0x00, 0x00, 0x00,
    0x01, 0x00, 0x00, 0x00, 0xae, 0xff, 0xff, 0xff, 0x24, 0x00, 0x00, 0x00, 0x00,
    0x00, 0x00, 0x05, 0x34, 0x00, 0x00, 0x00, 0x38, 0x00, 0x00, 0x00, 0x02, 0x00,
    0x00, 0x00, 0x00, 0x00, 0x0e, 0x00, 0x18, 0x00, 0x17, 0x00, 0x10, 0x00, 0x0c,
    0x00, 0x08, 0x00, 0x04, 0x00, 0x0e, 0x00, 0x00, 0x00, 0x02, 0x00, 0x00, 0x00,
    0x02, 0x00, 0x00, 0x00, 0x02, 0x00, 0x00, 0x00, 0x02, 0x00, 0x00, 0x00, 0x00,
    0x00, 0x00, 0x01, 0x01, 0x00, 0x00, 0x00, 0x08, 0x00, 0x00, 0x00, 0x01, 0x00,
    0x00, 0x00, 0x07, 0x00, 0x00, 0x00, 0x00, 0x00, 0x0e, 0x00, 0x18, 0x00, 0x14,
    0x00, 0x10, 0x00, 0x0c, 0x00, 0x0b, 0x00, 0x04, 0x00, 0x0e, 0x00, 0x00, 0x00,
    0x20, 0x00, 0x00, 0x00, 0x00, 0x00, 0x00, 0x01, 0x2c, 0x00, 0x00, 0x00, 0x30,
    0x00, 0x00, 0x00, 0x01, 0x00, 0x00, 0x00, 0x0c, 0x00, 0x14, 0x00, 0x13, 0x00,
    0x0c, 0x00, 0x08, 0x00, 0x07, 0x00, 0x0c, 0x00, 0x00, 0x00, 0x00, 0x00, 0x00,
    0x01, 0x01, 0x00, 0x00, 0x00, 0x01, 0x00, 0x00, 0x00, 0x00, 0x00, 0x00, 0x01,
    0x01, 0x00, 0x00, 0x00, 0x07, 0x00, 0x00, 0x00, 0x03, 0x00, 0x00, 0x00, 0x06,
    0x00, 0x00, 0x00, 0x05, 0x00, 0x00, 0x00, 0x04, 0x00, 0x00, 0x00, 0x00, 0x00,
    0x0a, 0x00, 0x0c, 0x00, 0x00, 0x00, 0x08, 0x00, 0x04, 0x00, 0x0a, 0x00, 0x00,
    0x00, 0x08, 0x00, 0x00, 0x00, 0x0c, 0x00, 0x00, 0x00, 0x01, 0x00, 0x00, 0x00,
    0x06, 0x00, 0x00, 0x00, 0x01, 0x00, 0x00, 0x00, 0x00, 0x00, 0x00, 0x00, 0x01,
    0x00, 0x00, 0x00, 0x0c, 0x00, 0x00, 0x00, 0x01, 0x00, 0x00, 0x00, 0x00, 0x00,
    0x00, 0x00, 0x0d, 0x00, 0x00, 0x00, 0x58, 0x06, 0x00, 0x00, 0xf0, 0x05, 0x00,
    0x00, 0x64, 0x05, 0x00, 0x00, 0xf8, 0x04, 0x00, 0x00, 0x7c, 0x04, 0x00, 0x00,
    0x08, 0x04, 0x00, 0x00, 0x84, 0x03, 0x00, 0x00, 0xa0, 0x02, 0x00, 0x00, 0x0c,
    0x02, 0x00, 0x00, 0x90, 0x01, 0x00, 0x00, 0xfc, 0x00, 0x00, 0x00, 0x80, 0x00,
    0x00, 0x00, 0x04, 0x00, 0x00, 0x00, 0xf2, 0xf9, 0xff, 0xff, 0x00, 0x00, 0x00,
    0x01, 0x18, 0x00, 0x00, 0x00, 0x20, 0x00, 0x00, 0x00, 0x3c, 0x00, 0x00, 0x00,
    0x0d, 0x00, 0x00, 0x00, 0x00, 0x00, 0x00, 0x03, 0x50, 0x00, 0x00, 0x00, 0x02,
    0x00, 0x00, 0x00, 0xff, 0xff, 0xff, 0xff, 0x0a, 0x00, 0x00, 0x00, 0xd4, 0xf9,
    0xff, 0xff, 0x08, 0x00, 0x00, 0x00, 0x10, 0x00, 0x00, 0x00, 0x01, 0x00, 0x00,
    0x00, 0x00, 0x00, 0x00, 0x00, 0x00, 0x00, 0x00, 0x00, 0x01, 0x00, 0x00, 0x00,
    0x00, 0x00, 0x80, 0x3b, 0x19, 0x00, 0x00, 0x00, 0x53, 0x74, 0x61, 0x74, 0x65,
    0x66, 0x75, 0x6c, 0x50, 0x61, 0x72, 0x74, 0x69, 0x74, 0x69, 0x6f, 0x6e, 0x65,
    0x64, 0x43, 0x61, 0x6c, 0x6c, 0x3a, 0x30, 0x00, 0x00, 0x00, 0x02, 0x00, 0x00,
    0x00, 0x01, 0x00, 0x00, 0x00, 0x0a, 0x00, 0x00, 0x00, 0x6a, 0xfa, 0xff, 0xff,
    0x00, 0x00, 0x00, 0x01, 0x18, 0x00, 0x00, 0x00, 0x20, 0x00, 0x00, 0x00, 0x3c,
    0x00, 0x00, 0x00, 0x0c, 0x00, 0x00, 0x00, 0x00, 0x00, 0x00, 0x09, 0x50, 0x00,
    0x00, 0x00, 0x02, 0x00, 0x00, 0x00, 0xff, 0xff, 0xff, 0xff, 0x0a, 0x00, 0x00,
    0x00, 0x4c, 0xfa, 0xff, 0xff, 0x08, 0x00, 0x00, 0x00, 0x10, 0x00, 0x00, 0x00,
    0x01, 0x00, 0x00, 0x00, 0x80, 0xff, 0xff, 0xff, 0xff, 0xff, 0xff, 0xff, 0x01,
    0x00, 0x00, 0x00, 0x00, 0x00, 0x80, 0x3b, 0x1a, 0x00, 0x00, 0x00, 0x53, 0x74,
    0x61, 0x74, 0x65, 0x66, 0x75, 0x6c, 0x50, 0x61, 0x72, 0x74, 0x69, 0x74, 0x69,
    0x6f, 0x6e, 0x65, 0x64, 0x43, 0x61, 0x6c, 0x6c, 0x3a, 0x30, 0x31, 0x00, 0x00,
    0x02, 0x00, 0x00, 0x00, 0x01, 0x00, 0x00, 0x00, 0x0a, 0x00, 0x00, 0x00, 0xe2,
    0xfa, 0xff, 0xff, 0x00, 0x00, 0x00, 0x01, 0x18, 0x00, 0x00, 0x00, 0x20, 0x00,
    0x00, 0x00, 0x3c, 0x00, 0x00, 0x00, 0x0b, 0x00, 0x00, 0x00, 0x00, 0x00, 0x00,
    0x09, 0x68, 0x00, 0x00, 0x00, 0x02, 0x00, 0x00, 0x00, 0xff, 0xff, 0xff, 0xff,
    0x0a, 0x00, 0x00, 0x00, 0xc4, 0xfa, 0xff, 0xff, 0x08, 0x00, 0x00, 0x00, 0x10,
    0x00, 0x00, 0x00, 0x01, 0x00, 0x00, 0x00, 0x23, 0x00, 0x00, 0x00, 0x00, 0x00,
    0x00, 0x00, 0x01, 0x00, 0x00, 0x00, 0xad, 0xb3, 0x16, 0x3e, 0x30, 0x00, 0x00,
    0x00, 0x73, 0x65, 0x71, 0x75, 0x65, 0x6e, 0x74, 0x69, 0x61, 0x6c, 0x2f, 0x64,
    0x65, 0x6e, 0x73, 0x65, 0x2f, 0x4d, 0x61, 0x74, 0x4d, 0x75, 0x6c, 0x3b, 0x73,
    0x65, 0x71, 0x75, 0x65, 0x6e, 0x74, 0x69, 0x61, 0x6c, 0x2f, 0x64, 0x65, 0x6e,
    0x73, 0x65, 0x2f, 0x42, 0x69, 0x61, 0x73, 0x41, 0x64, 0x64, 0x00, 0x00, 0x00,
    0x00, 0x02, 0x00, 0x00, 0x00, 0x01, 0x00, 0x00, 0x00, 0x0a, 0x00, 0x00, 0x00,
    0x72, 0xfb, 0xff, 0xff, 0x00, 0x00, 0x00, 0x01, 0x18, 0x00, 0x00, 0x00, 0x20,
    0x00, 0x00, 0x00, 0x3c, 0x00, 0x00, 0x00, 0x0a, 0x00, 0x00, 0x00, 0x00, 0x00,
    0x00, 0x09, 0x50, 0x00, 0x00, 0x00, 0x02, 0x00, 0x00, 0x00, 0xff, 0xff, 0xff,
    0xff, 0xa9, 0x00, 0x00, 0x00, 0x54, 0xfb, 0xff, 0xff, 0x08, 0x00, 0x00, 0x00,
    0x10, 0x00, 0x00, 0x00, 0x01, 0x00, 0x00, 0x00, 0x80, 0xff, 0xff, 0xff, 0xff,
    0xff, 0xff, 0xff, 0x01, 0x00, 0x00, 0x00, 0xe4, 0x21, 0x9e, 0x3c, 0x1a, 0x00,
    0x00, 0x00, 0x73, 0x65, 0x71, 0x75, 0x65, 0x6e, 0x74, 0x69, 0x61, 0x6c, 0x2f,
    0x66, 0x6c, 0x61, 0x74, 0x74, 0x65, 0x6e, 0x2f, 0x52, 0x65, 0x73, 0x68, 0x61,
    0x70, 0x65, 0x00, 0x00, 0x02, 0x00, 0x00, 0x00, 0x01, 0x00, 0x00, 0x00, 0xa9,
    0x00, 0x00, 0x00, 0xea, 0xfb, 0xff, 0xff, 0x00, 0x00, 0x00, 0x01, 0x18, 0x00,
    0x00, 0x00, 0x28, 0x00, 0x00, 0x00, 0x44, 0x00, 0x00, 0x00, 0x09, 0x00, 0x00,
    0x00, 0x00, 0x00, 0x00, 0x09, 0x60, 0x00, 0x00, 0x00, 0x04, 0x00, 0x00, 0x00,
    0xff, 0xff, 0xff, 0xff, 0x0d, 0x00, 0x00, 0x00, 0x0d, 0x00, 0x00, 0x00, 0x01,
    0x00, 0x00, 0x00, 0xd4, 0xfb, 0xff, 0xff, 0x08, 0x00, 0x00, 0x00, 0x10, 0x00,
    0x00, 0x00, 0x01, 0x00, 0x00, 0x00, 0x80, 0xff, 0xff, 0xff, 0xff, 0xff, 0xff,
    0xff, 0x01, 0x00, 0x00, 0x00, 0xe4, 0x21, 0x9e, 0x3c, 0x20, 0x00, 0x00, 0x00,
    0x73, 0x65, 0x71, 0x75, 0x65, 0x6e, 0x74, 0x69, 0x61, 0x6c, 0x2f, 0x6d, 0x61,
    0x78, 0x5f, 0x70, 0x6f, 0x6f, 0x6c, 0x69, 0x6e, 0x67, 0x32, 0x64, 0x2f, 0x4d,
    0x61, 0x78, 0x50, 0x6f, 0x6f, 0x6c, 0x00, 0x00, 0x00, 0x00, 0x04, 0x00, 0x00,
    0x00, 0x01, 0x00, 0x00, 0x00, 0x0d, 0x00, 0x00, 0x00, 0x0d, 0x00, 0x00, 0x00,
    0x01, 0x00, 0x00, 0x00, 0x7a, 0xfc, 0xff, 0xff, 0x00, 0x00, 0x00, 0x01, 0x18,
    0x00, 0x00, 0x00, 0x28, 0x00, 0x00, 0x00, 0x44, 0x00, 0x00, 0x00, 0x08, 0x00,
    0x00, 0x00, 0x00, 0x00, 0x00, 0x09, 0xb0, 0x00, 0x00, 0x00, 0x04, 0x00, 0x00,
    0x00, 0xff, 0xff, 0xff, 0xff, 0x1a, 0x00, 0x00, 0x00, 0x1a, 0x00, 0x00, 0x00,
    0x01, 0x00, 0x00, 0x00, 0x64, 0xfc, 0xff, 0xff, 0x08, 0x00, 0x00, 0x00, 0x10,
    0x00, 0x00, 0x00, 0x01, 0x00, 0x00, 0x00, 0x80, 0xff, 0xff, 0xff, 0xff, 0xff,
    0xff, 0xff, 0x01, 0x00, 0x00, 0x00, 0xe4, 0x21, 0x9e, 0x3c, 0x72, 0x00, 0x00,
    0x00, 0x73, 0x65, 0x71, 0x75, 0x65, 0x6e, 0x74, 0x69, 0x61, 0x6c, 0x2f, 0x63,
    0x6f, 0x6e, 0x76, 0x32, 0x64, 0x2f, 0x52, 0x65, 0x6c, 0x75, 0x3b, 0x73, 0x65,
    0x71, 0x75, 0x65, 0x6e, 0x74, 0x69, 0x61, 0x6c, 0x2f, 0x63, 0x6f, 0x6e, 0x76,
    0x32, 0x64, 0x2f, 0x42, 0x69, 0x61, 0x73, 0x41, 0x64, 0x64, 0x3b, 0x73, 0x65,
    0x71, 0x75, 0x65, 0x6e, 0x74, 0x69, 0x61, 0x6c, 0x2f, 0x63, 0x6f, 0x6e, 0x76,
    0x32, 0x64, 0x2f, 0x43, 0x6f, 0x6e, 0x76, 0x32, 0x44, 0x3b, 0x73, 0x65, 0x71,
    0x75, 0x65, 0x6e, 0x74, 0x69, 0x61, 0x6c, 0x2f, 0x63, 0x6f, 0x6e, 0x76, 0x32,
    0x64, 0x2f, 0x42, 0x69, 0x61, 0x73, 0x41, 0x64, 0x64, 0x2f, 0x52, 0x65, 0x61,
    0x64, 0x56, 0x61, 0x72, 0x69, 0x61, 0x62, 0x6c, 0x65, 0x4f, 0x70, 0x00, 0x00,
    0x04, 0x00, 0x00, 0x00, 0x01, 0x00, 0x00, 0x00, 0x1a, 0x00, 0x00, 0x00, 0x1a,
    0x00, 0x00, 0x00, 0x01, 0x00, 0x00, 0x00, 0x5a, 0xfd, 0xff, 0xff, 0x00, 0x00,
    0x00, 0x01, 0x18, 0x00, 0x00, 0x00, 0x28, 0x00, 0x00, 0x00, 0x48, 0x00, 0x00,
    0x00, 0x07, 0x00, 0x00, 0x00, 0x00, 0x00, 0x00, 0x09, 0x50, 0x00, 0x00, 0x00,
    0x04, 0x00, 0x00, 0x00, 0xff, 0xff, 0xff, 0xff, 0x1c, 0x00, 0x00, 0x00, 0x1c,
    0x00, 0x00, 0x00, 0x01, 0x00, 0x00, 0x00, 0x44, 0xfd, 0xff, 0xff, 0x08, 0x00,
    0x00, 0x00, 0x14, 0x00, 0x00, 0x00, 0x01, 0x00, 0x00, 0x00, 0x80, 0xff, 0xff,
    0xff, 0xff, 0xff, 0xff, 0xff, 0x00, 0x00, 0x00, 0x00, 0x01, 0x00, 0x00, 0x00,
    0x81, 0x80, 0x80, 0x3b, 0x0c, 0x00, 0x00, 0x00, 0x74, 0x66, 0x6c, 0x2e, 0x71,
    0x75, 0x61, 0x6e, 0x74, 0x69, 0x7a, 0x65, 0x00, 0x00, 0x00, 0x00, 0x04, 0x00,
    0x00, 0x00, 0x01, 0x00, 0x00, 0x00, 0x1c, 0x00, 0x00, 0x00, 0x1c, 0x00, 0x00,
    0x00, 0x01, 0x00, 0x00, 0x00, 0x3e, 0xfe, 0xff, 0xff, 0x00, 0x00, 0x00, 0x01,
    0x14, 0x00, 0x00, 0x00, 0x30, 0x00, 0x00, 0x00, 0x06, 0x00, 0x00, 0x00, 0x00,
    0x00, 0x00, 0x09, 0x44, 0x00, 0x00, 0x00, 0xac, 0xfd, 0xff, 0xff, 0x08, 0x00,
    0x00, 0x00, 0x10, 0x00, 0x00, 0x00, 0x01, 0x00, 0x00, 0x00, 0x00, 0x00, 0x00,
    0x00, 0x00, 0x00, 0x00, 0x00, 0x01, 0x00, 0x00, 0x00, 0xa5, 0x6c, 0x18, 0x3c,
    0x18, 0x00, 0x00, 0x00, 0x73, 0x65, 0x71, 0x75, 0x65, 0x6e, 0x74, 0x69, 0x61,
    0x6c, 0x2f, 0x63, 0x6f, 0x6e, 0x76, 0x32, 0x64, 0x2f, 0x43, 0x6f, 0x6e, 0x76,
    0x32, 0x44, 0x00, 0x00, 0x00, 0x00, 0x04, 0x00, 0x00, 0x00, 0x01, 0x00, 0x00,
    0x00, 0x03, 0x00, 0x00, 0x00, 0x03, 0x00, 0x00, 0x00, 0x01, 0x00, 0x00, 0x00,
    0xae, 0xfe, 0xff, 0xff, 0x00, 0x00, 0x00, 0x01, 0x14, 0x00, 0x00, 0x00, 0x34,
    0x00, 0x00, 0x00, 0x05, 0x00, 0x00, 0x00, 0x00, 0x00, 0x00, 0x02, 0x58, 0x00,
    0x00, 0x00, 0x1c, 0xfe, 0xff, 0xff, 0x08, 0x00, 0x00, 0x00, 0x14, 0x00, 0x00,
    0x00, 0x01, 0x00, 0x00, 0x00, 0x00, 0x00, 0x00, 0x00, 0x00, 0x00, 0x00, 0x00,
    0x00, 0x00, 0x00, 0x00, 0x01, 0x00, 0x00, 0x00, 0xab, 0x05, 0x19, 0x38, 0x28,
    0x00, 0x00, 0x00, 0x73, 0x65, 0x71, 0x75, 0x65, 0x6e, 0x74, 0x69, 0x61, 0x6c,
    0x2f, 0x63, 0x6f, 0x6e, 0x76, 0x32, 0x64, 0x2f, 0x42, 0x69, 0x61, 0x73, 0x41,
    0x64, 0x64, 0x2f, 0x52, 0x65, 0x61, 0x64, 0x56, 0x61, 0x72, 0x69, 0x61, 0x62,
    0x6c, 0x65, 0x4f, 0x70, 0x00, 0x00, 0x00, 0x00, 0x01, 0x00, 0x00, 0x00, 0x01,
    0x00, 0x00, 0x00, 0x26, 0xff, 0xff, 0xff, 0x00, 0x00, 0x00, 0x01, 0x14, 0x00,
    0x00, 0x00, 0x34, 0x00, 0x00, 0x00, 0x04, 0x00, 0x00, 0x00, 0x00, 0x00, 0x00,
    0x09, 0x44, 0x00, 0x00, 0x00, 0x94, 0xfe, 0xff, 0xff, 0x08, 0x00, 0x00, 0x00,
    0x14, 0x00, 0x00, 0x00, 0x01, 0x00, 0x00, 0x00, 0x00, 0x00, 0x00, 0x00, 0x00,
    0x00, 0x00, 0x00, 0x00, 0x00, 0x00, 0x00, 0x01, 0x00, 0x00, 0x00, 0xca, 0xa3,
    0xeb, 0x3b, 0x17, 0x00, 0x00, 0x00, 0x73, 0x65, 0x71, 0x75, 0x65, 0x6e, 0x74,
    0x69, 0x61, 0x6c, 0x2f, 0x64, 0x65, 0x6e, 0x73, 0x65, 0x2f, 0x4d, 0x61, 0x74,
    0x4d, 0x75, 0x6c, 0x00, 0x02, 0x00, 0x00, 0x00, 0x0a, 0x00, 0x00, 0x00, 0xa9,
    0x00, 0x00, 0x00, 0x8e, 0xff, 0xff, 0xff, 0x00, 0x00, 0x00, 0x01, 0x14, 0x00,
    0x00, 0x00, 0x30, 0x00, 0x00, 0x00, 0x03, 0x00, 0x00, 0x00, 0x00, 0x00, 0x00,
    0x02, 0x50, 0x00, 0x00, 0x00, 0xfc, 0xfe, 0xff, 0xff, 0x08, 0x00, 0x00, 0x00,
    0x10, 0x00, 0x00, 0x00, 0x01, 0x00, 0x00, 0x00, 0x00, 0x00, 0x00, 0x00, 0x00,
    0x00, 0x00, 0x00, 0x01, 0x00, 0x00, 0x00, 0x49, 0x8e, 0x11, 0x39, 0x27, 0x00,
    0x00, 0x00, 0x73, 0x65, 0x71, 0x75, 0x65, 0x6e, 0x74, 0x69, 0x61, 0x6c, 0x2f,
    0x64, 0x65, 0x6e, 0x73, 0x65, 0x2f, 0x42, 0x69, 0x61, 0x73, 0x41, 0x64, 0x64,
    0x2f, 0x52, 0x65, 0x61, 0x64, 0x56, 0x61, 0x72, 0x69, 0x61, 0x62, 0x6c, 0x65,
    0x4f, 0x70, 0x00, 0x01, 0x00, 0x00, 0x00, 0x0a, 0x00, 0x00, 0x00, 0x00, 0x00,
    0x16, 0x00, 0x1c, 0x00, 0x18, 0x00, 0x17, 0x00, 0x10, 0x00, 0x0c, 0x00, 0x08,
    0x00, 0x00, 0x00, 0x00, 0x00, 0x00, 0x00, 0x07, 0x00, 0x16, 0x00, 0x00, 0x00,
    0x00, 0x00, 0x00, 0x01, 0x18, 0x00, 0x00, 0x00, 0x18, 0x00, 0x00, 0x00, 0x02,
    0x00, 0x00, 0x00, 0x00, 0x00, 0x00, 0x02, 0x2c, 0x00, 0x00, 0x00, 0x04, 0x00,
    0x04, 0x00, 0x04, 0x00, 0x00, 0x00, 0x18, 0x00, 0x00, 0x00, 0x73, 0x65, 0x71,
    0x75, 0x65, 0x6e, 0x74, 0x69, 0x61, 0x6c, 0x2f, 0x66, 0x6c, 0x61, 0x74, 0x74,
    0x65, 0x6e, 0x2f, 0x43, 0x6f, 0x6e, 0x73, 0x74, 0x00, 0x00, 0x00, 0x00, 0x01,
    0x00, 0x00, 0x00, 0x02, 0x00, 0x00, 0x00, 0x00, 0x00, 0x16, 0x00, 0x20, 0x00,
    0x1c, 0x00, 0x1b, 0x00, 0x14, 0x00, 0x10, 0x00, 0x0c, 0x00, 0x00, 0x00, 0x00,
    0x00, 0x08, 0x00, 0x07, 0x00, 0x16, 0x00, 0x00, 0x00, 0x00, 0x00, 0x00, 0x01,
    0x18, 0x00, 0x00, 0x00, 0x34, 0x00, 0x00, 0x00, 0x50, 0x00, 0x00, 0x00, 0x01,
    0x00, 0x00, 0x00, 0x00, 0x00, 0x00, 0x03, 0x64, 0x00, 0x00, 0x00, 0x04, 0x00,
    0x00, 0x00, 0xff, 0xff, 0xff, 0xff, 0x1c, 0x00, 0x00, 0x00, 0x1c, 0x00, 0x00,
    0x00, 0x01, 0x00, 0x00, 0x00, 0x0c, 0x00, 0x0c, 0x00, 0x00, 0x00, 0x00, 0x00,
    0x08, 0x00, 0x04, 0x00, 0x0c, 0x00, 0x00, 0x00, 0x08, 0x00, 0x00, 0x00, 0x10,
    0x00, 0x00, 0x00, 0x01, 0x00, 0x00, 0x00, 0x00, 0x00, 0x00, 0x00, 0x00, 0x00,
    0x00, 0x00, 0x01, 0x00, 0x00, 0x00, 0x81, 0x80, 0x80, 0x3b, 0x19, 0x00, 0x00,
    0x00, 0x73, 0x65, 0x72, 0x76, 0x69, 0x6e, 0x67, 0x5f, 0x64, 0x65, 0x66, 0x61,
    0x75, 0x6c, 0x74, 0x5f, 0x69, 0x6e, 0x70, 0x75, 0x74, 0x5f, 0x31, 0x3a, 0x30,
    0x00, 0x00, 0x00, 0x04, 0x00, 0x00, 0x00, 0x01, 0x00, 0x00, 0x00, 0x1c, 0x00,
    0x00, 0x00, 0x1c, 0x00, 0x00, 0x00, 0x01, 0x00, 0x00, 0x00, 0x06, 0x00, 0x00,
    0x00, 0x7c, 0x00, 0x00, 0x00, 0x5c, 0x00, 0x00, 0x00, 0x3c, 0x00, 0x00, 0x00,
    0x2c, 0x00, 0x00, 0x00, 0x18, 0x00, 0x00, 0x00, 0x04, 0x00, 0x00, 0x00, 0xc4,
    0xff, 0xff, 0xff, 0x19, 0x00, 0x00, 0x00, 0x02, 0x00, 0x00, 0x00, 0x00, 0x00,
    0x00, 0x19, 0xd4, 0xff, 0xff, 0xff, 0x09, 0x00, 0x00, 0x00, 0x04, 0x00, 0x00,
    0x00, 0x00, 0x00, 0x00, 0x09, 0xc8, 0xff, 0xff, 0xff, 0x16, 0x00, 0x00, 0x00,
    0x00, 0x00, 0x00, 0x16, 0xf0, 0xff, 0xff, 0xff, 0x11, 0x00, 0x00, 0x00, 0x02,
    0x00, 0x00, 0x00, 0x00, 0x00, 0x00, 0x11, 0x0c, 0x00, 0x10, 0x00, 0x0f, 0x00,
    0x00, 0x00, 0x08, 0x00, 0x04, 0x00, 0x0c, 0x00, 0x00, 0x00, 0x03, 0x00, 0x00,
    0x00, 0x03, 0x00, 0x00, 0x00, 0x00, 0x00, 0x00, 0x03, 0x0c, 0x00, 0x0c, 0x00,
    0x0b, 0x00, 0x00, 0x00, 0x00, 0x00, 0x04, 0x00, 0x0c, 0x00, 0x00, 0x00, 0x72,
    0x00, 0x00, 0x00, 0x00, 0x00, 0x00, 0x72,
};
const int g_mnist_uint8_model_data_len = 4752;
